unsigned char wine_mlp_float_tflite[] = {
  0x1c, 0x00, 0x00, 0x00, 0x54, 0x46, 0x4c, 0x33, 0x14, 0x00, 0x20, 0x00,
  0x1c, 0x00, 0x18, 0x00, 0x14, 0x00, 0x10, 0x00, 0x0c, 0x00, 0x00, 0x00,
  0x08, 0x00, 0x04, 0x00, 0x14, 0x00, 0x00, 0x00, 0x1c, 0x00, 0x00, 0x00,
  0x98, 0x00, 0x00, 0x00, 0xf0, 0x00, 0x00, 0x00, 0x1c, 0x08, 0x00, 0x00,
  0x2c, 0x08, 0x00, 0x00, 0xec, 0x0d, 0x00, 0x00, 0x03, 0x00, 0x00, 0x00,
  0x01, 0x00, 0x00, 0x00, 0x10, 0x00, 0x00, 0x00, 0x00, 0x00, 0x0a, 0x00,
  0x10, 0x00, 0x0c, 0x00, 0x08, 0x00, 0x04, 0x00, 0x0a, 0x00, 0x00, 0x00,
  0x0c, 0x00, 0x00, 0x00, 0x1c, 0x00, 0x00, 0x00, 0x3c, 0x00, 0x00, 0x00,
  0x0f, 0x00, 0x00, 0x00, 0x73, 0x65, 0x72, 0x76, 0x69, 0x6e, 0x67, 0x5f,
  0x64, 0x65, 0x66, 0x61, 0x75, 0x6c, 0x74, 0x00, 0x01, 0x00, 0x00, 0x00,
  0x04, 0x00, 0x00, 0x00, 0x90, 0xff, 0xff, 0xff, 0x0a, 0x00, 0x00, 0x00,
  0x04, 0x00, 0x00, 0x00, 0x08, 0x00, 0x00, 0x00, 0x6f, 0x75, 0x74, 0x70,
  0x75, 0x74, 0x5f, 0x30, 0x00, 0x00, 0x00, 0x00, 0x01, 0x00, 0x00, 0x00,
  0x04, 0x00, 0x00, 0x00, 0xca, 0xf7, 0xff, 0xff, 0x04, 0x00, 0x00, 0x00,
  0x0e, 0x00, 0x00, 0x00, 0x6b, 0x65, 0x72, 0x61, 0x73, 0x5f, 0x74, 0x65,
  0x6e, 0x73, 0x6f, 0x72, 0x5f, 0x38, 0x00, 0x00, 0x02, 0x00, 0x00, 0x00,
  0x34, 0x00, 0x00, 0x00, 0x04, 0x00, 0x00, 0x00, 0xdc, 0xff, 0xff, 0xff,
  0x0d, 0x00, 0x00, 0x00, 0x04, 0x00, 0x00, 0x00, 0x13, 0x00, 0x00, 0x00,
  0x43, 0x4f, 0x4e, 0x56, 0x45, 0x52, 0x53, 0x49, 0x4f, 0x4e, 0x5f, 0x4d,
  0x45, 0x54, 0x41, 0x44, 0x41, 0x54, 0x41, 0x00, 0x08, 0x00, 0x0c, 0x00,
  0x08, 0x00, 0x04, 0x00, 0x08, 0x00, 0x00, 0x00, 0x0c, 0x00, 0x00, 0x00,
  0x04, 0x00, 0x00, 0x00, 0x13, 0x00, 0x00, 0x00, 0x6d, 0x69, 0x6e, 0x5f,
  0x72, 0x75, 0x6e, 0x74, 0x69, 0x6d, 0x65, 0x5f, 0x76, 0x65, 0x72, 0x73,
  0x69, 0x6f, 0x6e, 0x00, 0x0e, 0x00, 0x00, 0x00, 0x28, 0x07, 0x00, 0x00,
  0x20, 0x07, 0x00, 0x00, 0xb0, 0x06, 0x00, 0x00, 0xa0, 0x04, 0x00, 0x00,
  0x84, 0x04, 0x00, 0x00, 0x54, 0x04, 0x00, 0x00, 0x04, 0x04, 0x00, 0x00,
  0xb4, 0x00, 0x00, 0x00, 0xac, 0x00, 0x00, 0x00, 0xa4, 0x00, 0x00, 0x00,
  0x9c, 0x00, 0x00, 0x00, 0x94, 0x00, 0x00, 0x00, 0x74, 0x00, 0x00, 0x00,
  0x04, 0x00, 0x00, 0x00, 0x7e, 0xf8, 0xff, 0xff, 0x04, 0x00, 0x00, 0x00,
  0x60, 0x00, 0x00, 0x00, 0x10, 0x00, 0x00, 0x00, 0x00, 0x00, 0x00, 0x00,
  0x08, 0x00, 0x0e, 0x00, 0x08, 0x00, 0x04, 0x00, 0x08, 0x00, 0x00, 0x00,
  0x10, 0x00, 0x00, 0x00, 0x24, 0x00, 0x00, 0x00, 0x00, 0x00, 0x06, 0x00,
  0x08, 0x00, 0x04, 0x00, 0x06, 0x00, 0x00, 0x00, 0x04, 0x00, 0x00, 0x00,
  0x00, 0x00, 0x00, 0x00, 0x0c, 0x00, 0x18, 0x00, 0x14, 0x00, 0x10, 0x00,
  0x0c, 0x00, 0x04, 0x00, 0x0c, 0x00, 0x00, 0x00, 0x86, 0x15, 0xde, 0x51,
  0xa6, 0x78, 0xd4, 0x03, 0x02, 0x00, 0x00, 0x00, 0x02, 0x00, 0x00, 0x00,
  0x04, 0x00, 0x00, 0x00, 0x06, 0x00, 0x00, 0x00, 0x32, 0x2e, 0x31, 0x39,
  0x2e, 0x30, 0x00, 0x00, 0xea, 0xf8, 0xff, 0xff, 0x04, 0x00, 0x00, 0x00,
  0x10, 0x00, 0x00, 0x00, 0x31, 0x2e, 0x35, 0x2e, 0x30, 0x00, 0x00, 0x00,
  0x00, 0x00, 0x00, 0x00, 0x00, 0x00, 0x00, 0x00, 0xf8, 0xf3, 0xff, 0xff,
  0xfc, 0xf3, 0xff, 0xff, 0x00, 0xf4, 0xff, 0xff, 0x04, 0xf4, 0xff, 0xff,
  0x16, 0xf9, 0xff, 0xff, 0x04, 0x00, 0x00, 0x00, 0x40, 0x03, 0x00, 0x00,
  0x5e, 0xed, 0x07, 0x3e, 0x04, 0xb5, 0xaa, 0x3e, 0x60, 0x8f, 0xff, 0x3e,
  0x92, 0xc1, 0xfb, 0xbd, 0x96, 0x82, 0x9c, 0x3e, 0x0e, 0xb1, 0xf1, 0xbe,
  0x92, 0x7a, 0xde, 0xbe, 0x0c, 0xa3, 0xce, 0x3e, 0xa4, 0xcd, 0xa0, 0xbe,
  0x31, 0xe0, 0x17, 0x3f, 0x68, 0x4a, 0x18, 0xbf, 0xa9, 0x65, 0x71, 0xbe,
  0x02, 0x47, 0x98, 0x3e, 0xbc, 0x54, 0x16, 0xbe, 0x46, 0x85, 0xf1, 0xbc,
  0x1e, 0x74, 0xf1, 0xbe, 0xdd, 0x87, 0x9a, 0x3d, 0x02, 0x84, 0xa9, 0xbe,
  0x74, 0xea, 0x35, 0xbd, 0xdc, 0x6d, 0xbd, 0x3d, 0x82, 0x2a, 0x98, 0x3e,
  0xf6, 0x49, 0xaf, 0x3e, 0x09, 0x3d, 0xaa, 0xbe, 0x86, 0x35, 0x05, 0x3f,
  0x4f, 0x95, 0x69, 0x3e, 0x14, 0x85, 0x83, 0xbd, 0xc2, 0x18, 0x35, 0x3f,
  0x8c, 0x0d, 0x07, 0x3e, 0x49, 0x79, 0x75, 0x3e, 0x39, 0x63, 0x00, 0xbf,
  0x3f, 0x82, 0xae, 0x3e, 0xc5, 0xd1, 0x90, 0xbe, 0xac, 0xd9, 0xec, 0x3e,
  0x5e, 0xf4, 0x10, 0xbf, 0x39, 0x83, 0x15, 0x3d, 0x4e, 0xf1, 0x3e, 0x3e,
  0x29, 0xea, 0x83, 0xbe, 0x95, 0x51, 0x84, 0x3d, 0x42, 0x95, 0xfc, 0x3e,
  0xae, 0xca, 0x55, 0x3e, 0xa2, 0x84, 0x42, 0xbe, 0xae, 0x74, 0xc2, 0xbe,
  0x98, 0x43, 0xa3, 0xbe, 0xfc, 0xce, 0xf2, 0xbe, 0x9f, 0xfe, 0xb3, 0x3e,
  0x66, 0x3d, 0x20, 0xbe, 0x0f, 0xb4, 0xbc, 0xbe, 0x61, 0x85, 0xfc, 0x3e,
  0xda, 0xfb, 0x17, 0xbf, 0xe1, 0xe7, 0x81, 0x3e, 0x25, 0xa4, 0xaa, 0xbd,
  0x04, 0x5d, 0xe5, 0x3d, 0x0d, 0x97, 0xf4, 0xbd, 0x21, 0x0d, 0x8b, 0x3e,
  0xfc, 0xa6, 0x8b, 0xbe, 0x3b, 0x5e, 0x4c, 0x3e, 0xca, 0x3f, 0xfe, 0xbd,
  0x4b, 0x1c, 0xef, 0xbd, 0xdf, 0x10, 0x2e, 0xbe, 0x27, 0x77, 0x7b, 0xbe,
  0xc9, 0x4e, 0x63, 0xbd, 0xa3, 0xf2, 0x52, 0x3e, 0x1f, 0x96, 0xb0, 0xbd,
  0xeb, 0x97, 0x27, 0x3e, 0xab, 0x08, 0x19, 0x3d, 0x7f, 0xd2, 0x9a, 0xbe,
  0x7a, 0x43, 0x43, 0xbe, 0x2f, 0xb7, 0x65, 0xbd, 0xb8, 0x28, 0x0d, 0xbe,
  0x33, 0xee, 0x5f, 0x3e, 0xd2, 0xe1, 0x8d, 0xbd, 0x42, 0x54, 0x0a, 0x3e,
  0x95, 0xe7, 0xc2, 0x3e, 0x74, 0x20, 0xaa, 0x3e, 0x8a, 0xa6, 0x22, 0xbf,
  0xf5, 0xfa, 0x8e, 0x3b, 0x8b, 0x83, 0x48, 0x3e, 0x51, 0x67, 0x11, 0xbf,
  0x51, 0xe8, 0xf9, 0x3e, 0x21, 0xaf, 0x66, 0xbc, 0x27, 0x87, 0x5e, 0xbe,
  0x99, 0x78, 0xc8, 0xbd, 0x34, 0xab, 0xec, 0x3e, 0xf2, 0x78, 0x55, 0xbd,
  0x9d, 0xe5, 0xe9, 0x3e, 0xa8, 0xa1, 0x66, 0xbe, 0x24, 0x0f, 0xca, 0x3e,
  0x8a, 0x4c, 0xc6, 0xbb, 0xeb, 0x41, 0xec, 0xbd, 0xbc, 0x0a, 0xdc, 0x3d,
  0x82, 0x14, 0xac, 0x3e, 0x0b, 0xb0, 0xc3, 0x3d, 0xa7, 0x20, 0x0f, 0xbe,
  0x42, 0x9f, 0xb2, 0x3e, 0x69, 0xe7, 0x8b, 0xbe, 0xa4, 0x29, 0x56, 0xbd,
  0x10, 0x14, 0x60, 0xbd, 0x8d, 0x5b, 0x11, 0xbf, 0xdc, 0x7f, 0xae, 0x3e,
  0x55, 0xdc, 0x4f, 0xbe, 0x2f, 0xfd, 0xc4, 0x3e, 0x06, 0x6b, 0xa1, 0xbe,
  0x95, 0x97, 0x24, 0xbe, 0x08, 0x9d, 0x56, 0x3e, 0x7e, 0x74, 0x0c, 0x3e,
  0xc6, 0x07, 0x90, 0x3e, 0xfd, 0xd2, 0xec, 0x3e, 0x16, 0x33, 0x85, 0xbe,
  0x77, 0x14, 0xb2, 0x3e, 0xa7, 0xa6, 0xb2, 0x3e, 0x13, 0x82, 0xa6, 0xbe,
  0x9f, 0x7c, 0xb8, 0x3e, 0x53, 0xf9, 0x45, 0xbe, 0x76, 0xed, 0xc7, 0x3e,
  0xc9, 0x8d, 0x9a, 0xbe, 0x30, 0xa6, 0x1b, 0xbd, 0xc1, 0xa8, 0xa2, 0x3e,
  0x96, 0xbc, 0xc4, 0x3e, 0x5b, 0x19, 0x52, 0xbe, 0xe6, 0x18, 0x18, 0x3d,
  0xe1, 0x6c, 0xb5, 0xbe, 0x71, 0xc0, 0x03, 0xbe, 0x7d, 0x7c, 0x9e, 0xbe,
  0xd7, 0xed, 0xd2, 0xbe, 0x67, 0x9e, 0x89, 0xbe, 0xd6, 0x9b, 0x3e, 0x3e,
  0x1b, 0xb3, 0x35, 0xbe, 0xed, 0xb6, 0x17, 0xbf, 0xd1, 0x90, 0x8f, 0x3d,
  0xed, 0xe1, 0x74, 0xbd, 0xf4, 0xfc, 0x08, 0x3f, 0x2e, 0x9d, 0x80, 0xbe,
  0xcb, 0xee, 0xdd, 0x3e, 0x26, 0xed, 0x1c, 0xbf, 0x59, 0x5b, 0x67, 0x3d,
  0xae, 0x2c, 0x54, 0x3e, 0x24, 0xd9, 0x0e, 0x3f, 0xc8, 0x6c, 0x87, 0xbc,
  0x50, 0x98, 0x4e, 0xbd, 0xaf, 0x03, 0x58, 0x3e, 0x07, 0xff, 0x2b, 0xbe,
  0x60, 0x0c, 0x20, 0x3f, 0x52, 0xd6, 0x76, 0xbc, 0x68, 0x17, 0xc0, 0xbe,
  0xb1, 0x8e, 0x0c, 0xbf, 0xbe, 0x9d, 0xba, 0xbe, 0x38, 0xa2, 0xd1, 0x3e,
  0x69, 0x0e, 0xf3, 0x3e, 0x01, 0xe5, 0x9a, 0x3d, 0x20, 0xf0, 0x78, 0xbe,
  0x42, 0x5e, 0xa6, 0x3d, 0xa4, 0x4c, 0xc1, 0x3e, 0xfc, 0x4d, 0x29, 0xbf,
  0xe5, 0xc1, 0x39, 0xbe, 0x26, 0x01, 0x1a, 0xbe, 0xe3, 0x91, 0x1a, 0xbe,
  0x89, 0xaf, 0xb7, 0x3e, 0xfb, 0x1d, 0xe5, 0x3e, 0x5f, 0xcb, 0xac, 0x3e,
  0x08, 0x42, 0x94, 0x3e, 0xd5, 0x0e, 0xf4, 0xbe, 0xa3, 0x1d, 0x76, 0xbe,
  0xdb, 0xe1, 0xf5, 0x3d, 0xd3, 0x5f, 0xc2, 0x3e, 0x5e, 0x22, 0x94, 0x3e,
  0x7e, 0x3d, 0xa2, 0xbc, 0xc0, 0x33, 0xb6, 0x3d, 0xf5, 0x28, 0x1e, 0xbe,
  0x28, 0x48, 0x0d, 0xbf, 0xa2, 0x82, 0x88, 0x3e, 0x7c, 0x53, 0xea, 0x3c,
  0x43, 0xfe, 0xd4, 0x3d, 0x7a, 0xde, 0xf7, 0xbd, 0x95, 0xe7, 0xa6, 0x3e,
  0x4d, 0x3b, 0xa7, 0xbc, 0x00, 0xfe, 0x5f, 0x3d, 0xef, 0x2a, 0x96, 0xbc,
  0x59, 0xee, 0x3b, 0xbe, 0x38, 0x9a, 0x23, 0xbe, 0x1b, 0xf2, 0x81, 0x3e,
  0xb4, 0x53, 0xab, 0x3e, 0xd5, 0x23, 0x12, 0x3f, 0xde, 0x98, 0x31, 0x3e,
  0x2e, 0xb5, 0xc2, 0x3e, 0x06, 0x34, 0xc9, 0xbe, 0xf7, 0x59, 0x15, 0xbe,
  0x11, 0xb5, 0x20, 0xbe, 0xcd, 0xe3, 0xdb, 0xbe, 0x41, 0x67, 0x94, 0x3e,
  0x1e, 0xf1, 0x00, 0x3d, 0x0d, 0x06, 0x09, 0xbf, 0xf8, 0x8b, 0x92, 0xbc,
  0xd6, 0x3d, 0x2d, 0x3e, 0x0c, 0x65, 0x35, 0xbd, 0x0c, 0x39, 0x16, 0xbf,
  0x59, 0x2b, 0xb9, 0xbe, 0x8e, 0x7c, 0x3f, 0xba, 0x7c, 0x80, 0x78, 0x3c,
  0xb9, 0x83, 0xc1, 0x3e, 0xd4, 0x5d, 0xbd, 0xbe, 0x4d, 0xa4, 0x8c, 0xbe,
  0x3d, 0x4a, 0x38, 0xbf, 0x98, 0xbc, 0xf5, 0xbd, 0x8f, 0x46, 0xe9, 0xbe,
  0x7f, 0x65, 0x9c, 0x3d, 0xfc, 0x04, 0x26, 0xbf, 0xbb, 0xf7, 0xf5, 0xbe,
  0x7b, 0xa8, 0xbc, 0xbe, 0x62, 0xfc, 0xff, 0xff, 0x04, 0x00, 0x00, 0x00,
  0x40, 0x00, 0x00, 0x00, 0x24, 0x0c, 0xa2, 0x3d, 0x74, 0xd1, 0x43, 0x3e,
  0xa7, 0x30, 0xab, 0x3e, 0x21, 0x09, 0x09, 0x3e, 0xe4, 0x98, 0x4e, 0xbe,
  0x7f, 0xc0, 0xa4, 0x3e, 0x01, 0x96, 0x25, 0x3e, 0xbd, 0x14, 0xc9, 0xbd,
  0x18, 0x29, 0x2b, 0x3e, 0x99, 0x02, 0x44, 0x3e, 0x0c, 0xda, 0x7c, 0x3e,
  0x4d, 0x06, 0xd1, 0x3e, 0xca, 0x05, 0x7b, 0x3e, 0x54, 0xa1, 0x29, 0x3e,
  0xce, 0xdc, 0xb4, 0x3b, 0x55, 0x8e, 0x95, 0x3e, 0xae, 0xfc, 0xff, 0xff,
  0x04, 0x00, 0x00, 0x00, 0x20, 0x00, 0x00, 0x00, 0x73, 0xc4, 0x03, 0xbe,
  0xed, 0x48, 0x3b, 0x3e, 0xb9, 0xa9, 0x51, 0x3e, 0x51, 0xca, 0x28, 0x3d,
  0xdf, 0xc2, 0x6d, 0x3c, 0xc7, 0x96, 0x69, 0xbd, 0xba, 0x86, 0x4c, 0xbd,
  0x7f, 0xd9, 0x97, 0x3b, 0xda, 0xfc, 0xff, 0xff, 0x04, 0x00, 0x00, 0x00,
  0x0c, 0x00, 0x00, 0x00, 0x7d, 0x56, 0x42, 0x3e, 0xd8, 0x3e, 0x24, 0xbd,
  0x85, 0x16, 0x28, 0xbe, 0xf2, 0xfc, 0xff, 0xff, 0x04, 0x00, 0x00, 0x00,
  0x00, 0x02, 0x00, 0x00, 0x0c, 0xe9, 0x2b, 0xbe, 0xf4, 0x7d, 0x63, 0x3e,
  0x48, 0x7c, 0x2e, 0xbe, 0x91, 0x4f, 0x99, 0xbe, 0x40, 0xba, 0x23, 0xbd,
  0x0a, 0xc4, 0x19, 0x3c, 0x16, 0x77, 0x1b, 0x3e, 0xf0, 0xb4, 0xef, 0xbd,
  0xcc, 0x2c, 0xd4, 0xbe, 0x03, 0x30, 0x92, 0xbe, 0xcf, 0x3e, 0xc9, 0x3e,
  0x10, 0xad, 0x8c, 0x3d, 0x84, 0x61, 0xe6, 0xbe, 0x59, 0x91, 0xfe, 0xbe,
  0x32, 0xb0, 0x9b, 0x3e, 0xa2, 0x70, 0x8a, 0xbe, 0xe3, 0x2e, 0xfc, 0xbe,
  0x46, 0x66, 0x02, 0x3f, 0x37, 0x80, 0x3c, 0xbe, 0x37, 0x0d, 0x1c, 0x3f,
  0x50, 0x33, 0xc9, 0xbe, 0xa7, 0x80, 0x4f, 0x3f, 0xa5, 0x12, 0x68, 0xbe,
  0x52, 0xbb, 0x22, 0xbe, 0xb0, 0x0f, 0x31, 0xbf, 0x27, 0x36, 0x0d, 0xbf,
  0x3c, 0xff, 0x90, 0x3e, 0xf6, 0x3c, 0x8d, 0x3e, 0x42, 0x7e, 0x04, 0x3f,
  0xa0, 0xf0, 0xbe, 0xbe, 0x6e, 0x37, 0x5e, 0x3e, 0x24, 0x0e, 0xb4, 0x3e,
  0x0d, 0x83, 0x01, 0x3e, 0xb8, 0x34, 0x23, 0x3d, 0x34, 0xe1, 0x1d, 0x3f,
  0x8b, 0xc7, 0x1c, 0x3e, 0x0e, 0x64, 0x98, 0xbe, 0x73, 0x74, 0x2a, 0xbe,
  0x48, 0x32, 0x86, 0x3e, 0x19, 0x8b, 0x44, 0xbe, 0x0c, 0x5c, 0x8e, 0x3e,
  0x10, 0x53, 0xe2, 0x3e, 0x53, 0xeb, 0x3a, 0x3f, 0xc0, 0x4c, 0x1f, 0xbf,
  0x17, 0xcd, 0xae, 0x3e, 0x7d, 0xb8, 0x9a, 0x3e, 0x28, 0x5e, 0x6e, 0xbe,
  0xf1, 0x2d, 0x12, 0x3f, 0x5b, 0xcd, 0x5e, 0xbd, 0x27, 0x50, 0xd6, 0x3e,
  0xed, 0x9f, 0x07, 0xbf, 0x99, 0x22, 0xe3, 0x3e, 0x01, 0x15, 0x9e, 0xbd,
  0x22, 0x5e, 0x19, 0x3e, 0xe2, 0xf0, 0x0e, 0x3f, 0x03, 0x31, 0xb6, 0xbd,
  0x09, 0xcb, 0x12, 0x3e, 0xdf, 0x95, 0x53, 0x3e, 0x94, 0x77, 0x84, 0x3e,
  0x6e, 0xb1, 0x64, 0x3f, 0xee, 0x8c, 0x27, 0x3e, 0x31, 0x99, 0xd4, 0x3e,
  0x22, 0xb0, 0x04, 0x3f, 0xfa, 0x90, 0xb4, 0xbe, 0xd4, 0xa6, 0x9c, 0x3e,
  0x3f, 0x80, 0x6f, 0x3e, 0xbd, 0x46, 0x71, 0xbd, 0x10, 0xe9, 0xc0, 0x3d,
  0x5b, 0x8b, 0x04, 0xbe, 0x23, 0x27, 0xb6, 0xbe, 0x92, 0x6d, 0xc9, 0xbe,
  0xc4, 0x62, 0x4a, 0x3e, 0x92, 0xd1, 0xbb, 0x3e, 0x21, 0x8e, 0xb8, 0x3d,
  0xa8, 0x51, 0x89, 0x3e, 0x9b, 0x78, 0xe1, 0x3e, 0x0c, 0x43, 0xb1, 0x3e,
  0xd3, 0x9d, 0x19, 0xbf, 0x70, 0x0e, 0x89, 0x3e, 0x14, 0x3b, 0xdc, 0x3e,
  0x7b, 0x34, 0xd3, 0xbe, 0xd8, 0x6d, 0xb3, 0xbd, 0x93, 0x52, 0xce, 0x3d,
  0x7d, 0x3c, 0xd0, 0xbe, 0x29, 0xa5, 0x5d, 0xbd, 0xb3, 0x7d, 0x0f, 0xbf,
  0x39, 0x7f, 0xcb, 0xbe, 0xeb, 0xad, 0xab, 0xbe, 0x23, 0x80, 0x75, 0x3e,
  0xe9, 0xee, 0xc1, 0xbe, 0xa6, 0x0f, 0x16, 0xbe, 0xf0, 0x8c, 0xd0, 0xbe,
  0x6b, 0xe2, 0x0c, 0x3e, 0x7e, 0xf0, 0x4e, 0xbe, 0x3b, 0x10, 0x01, 0x3f,
  0x80, 0x02, 0x4b, 0x3e, 0x5d, 0x94, 0xf1, 0xbd, 0x08, 0x18, 0xf4, 0xbe,
  0x51, 0x96, 0xe4, 0xbe, 0xeb, 0x8d, 0x7a, 0x3e, 0xd0, 0x80, 0xa9, 0x3e,
  0xe8, 0x06, 0xb5, 0xbd, 0x22, 0xfe, 0xa5, 0x3e, 0x9a, 0x69, 0x04, 0xbf,
  0xb2, 0xf3, 0xd8, 0x3e, 0xd4, 0xe0, 0x2a, 0xbe, 0xec, 0xc9, 0x06, 0xbe,
  0xf4, 0xd9, 0x76, 0xbe, 0x63, 0x3f, 0x9a, 0xbe, 0x49, 0xe2, 0xe6, 0x3c,
  0x9c, 0x99, 0x05, 0x3e, 0xc6, 0x50, 0x34, 0x3e, 0x87, 0x68, 0x24, 0x3f,
  0x3f, 0x24, 0x6d, 0xbe, 0x23, 0x1c, 0xb4, 0x3e, 0xd8, 0xcc, 0xcf, 0xbd,
  0xda, 0x9b, 0x80, 0x3e, 0x49, 0xb1, 0x02, 0x3e, 0xce, 0xca, 0x4a, 0x3d,
  0x84, 0xf6, 0x89, 0x3e, 0x1c, 0xfb, 0x1e, 0xbe, 0xec, 0xb3, 0x25, 0x3e,
  0x51, 0x87, 0xfa, 0xbe, 0xb5, 0xa4, 0x36, 0x3f, 0xa6, 0x0d, 0xdc, 0x3e,
  0x80, 0xf1, 0xac, 0xbd, 0x82, 0x6f, 0xe6, 0xbd, 0xbe, 0x76, 0xf4, 0x3e,
  0xfe, 0xfe, 0xff, 0xff, 0x04, 0x00, 0x00, 0x00, 0x60, 0x00, 0x00, 0x00,
  0x1b, 0x0c, 0xa6, 0x3e, 0x39, 0x12, 0xb9, 0xbe, 0x75, 0x8b, 0x4f, 0x3f,
  0x0e, 0x09, 0x84, 0xbd, 0x7a, 0x4d, 0x3d, 0xbf, 0x59, 0xa5, 0xf3, 0xbb,
  0xf5, 0xf6, 0x1f, 0xbf, 0xfa, 0x91, 0x6f, 0xbf, 0x34, 0x3d, 0x96, 0x3d,
  0x7d, 0xd2, 0x67, 0x3f, 0x13, 0xd6, 0x6a, 0xbf, 0xba, 0x91, 0x60, 0x3e,
  0x43, 0x7c, 0x7b, 0xbe, 0x9d, 0x61, 0x53, 0x3c, 0x10, 0xf1, 0x10, 0x3f,
  0xce, 0x47, 0x31, 0x3e, 0x92, 0xd4, 0xe5, 0x3e, 0xbe, 0xad, 0x8d, 0xbf,
  0xc8, 0x0d, 0x75, 0xbe, 0x82, 0xef, 0x80, 0xbe, 0x15, 0x9a, 0x32, 0x3f,
  0x5c, 0xd7, 0xd5, 0x3e, 0x2f, 0x7a, 0xc1, 0xbd, 0x4e, 0x9f, 0x8c, 0x3e,
  0x5c, 0xfa, 0xff, 0xff, 0x60, 0xfa, 0xff, 0xff, 0x0f, 0x00, 0x00, 0x00,
  0x4d, 0x4c, 0x49, 0x52, 0x20, 0x43, 0x6f, 0x6e, 0x76, 0x65, 0x72, 0x74,
  0x65, 0x64, 0x2e, 0x00, 0x01, 0x00, 0x00, 0x00, 0x14, 0x00, 0x00, 0x00,
  0x00, 0x00, 0x0e, 0x00, 0x18, 0x00, 0x14, 0x00, 0x10, 0x00, 0x0c, 0x00,
  0x08, 0x00, 0x04, 0x00, 0x0e, 0x00, 0x00, 0x00, 0x14, 0x00, 0x00, 0x00,
  0x1c, 0x00, 0x00, 0x00, 0x24, 0x01, 0x00, 0x00, 0x28, 0x01, 0x00, 0x00,
  0x2c, 0x01, 0x00, 0x00, 0x04, 0x00, 0x00, 0x00, 0x6d, 0x61, 0x69, 0x6e,
  0x00, 0x00, 0x00, 0x00, 0x04, 0x00, 0x00, 0x00, 0xcc, 0x00, 0x00, 0x00,
  0x84, 0x00, 0x00, 0x00, 0x50, 0x00, 0x00, 0x00, 0x14, 0x00, 0x00, 0x00,
  0x00, 0x00, 0x0e, 0x00, 0x1a, 0x00, 0x14, 0x00, 0x10, 0x00, 0x0c, 0x00,
  0x0b, 0x00, 0x04, 0x00, 0x0e, 0x00, 0x00, 0x00, 0x1c, 0x00, 0x00, 0x00,
  0x00, 0x00, 0x00, 0x09, 0x1c, 0x00, 0x00, 0x00, 0x20, 0x00, 0x00, 0x00,
  0x01, 0x00, 0x00, 0x00, 0x00, 0x00, 0x06, 0x00, 0x08, 0x00, 0x04, 0x00,
  0x06, 0x00, 0x00, 0x00, 0x00, 0x00, 0x80, 0x3f, 0x01, 0x00, 0x00, 0x00,
  0x0a, 0x00, 0x00, 0x00, 0x01, 0x00, 0x00, 0x00, 0x09, 0x00, 0x00, 0x00,
  0x9a, 0xff, 0xff, 0xff, 0x10, 0x00, 0x00, 0x00, 0x00, 0x00, 0x00, 0x08,
  0x0c, 0x00, 0x00, 0x00, 0x10, 0x00, 0x00, 0x00, 0x24, 0xfb, 0xff, 0xff,
  0x01, 0x00, 0x00, 0x00, 0x09, 0x00, 0x00, 0x00, 0x03, 0x00, 0x00, 0x00,
  0x08, 0x00, 0x00, 0x00, 0x01, 0x00, 0x00, 0x00, 0x03, 0x00, 0x00, 0x00,
  0xca, 0xff, 0xff, 0xff, 0x10, 0x00, 0x00, 0x00, 0x00, 0x00, 0x00, 0x08,
  0x10, 0x00, 0x00, 0x00, 0x14, 0x00, 0x00, 0x00, 0xba, 0xff, 0xff, 0xff,
  0x00, 0x00, 0x00, 0x01, 0x01, 0x00, 0x00, 0x00, 0x08, 0x00, 0x00, 0x00,
  0x03, 0x00, 0x00, 0x00, 0x07, 0x00, 0x00, 0x00, 0x02, 0x00, 0x00, 0x00,
  0x04, 0x00, 0x00, 0x00, 0x00, 0x00, 0x0e, 0x00, 0x16, 0x00, 0x00, 0x00,
  0x10, 0x00, 0x0c, 0x00, 0x0b, 0x00, 0x04, 0x00, 0x0e, 0x00, 0x00, 0x00,
  0x18, 0x00, 0x00, 0x00, 0x00, 0x00, 0x00, 0x08, 0x18, 0x00, 0x00, 0x00,
  0x1c, 0x00, 0x00, 0x00, 0x00, 0x00, 0x06, 0x00, 0x08, 0x00, 0x07, 0x00,
  0x06, 0x00, 0x00, 0x00, 0x00, 0x00, 0x00, 0x01, 0x01, 0x00, 0x00, 0x00,
  0x07, 0x00, 0x00, 0x00, 0x03, 0x00, 0x00, 0x00, 0x00, 0x00, 0x00, 0x00,
  0x06, 0x00, 0x00, 0x00, 0x05, 0x00, 0x00, 0x00, 0x01, 0x00, 0x00, 0x00,
  0x0a, 0x00, 0x00, 0x00, 0x01, 0x00, 0x00, 0x00, 0x00, 0x00, 0x00, 0x00,
  0x0b, 0x00, 0x00, 0x00, 0x04, 0x04, 0x00, 0x00, 0xac, 0x03, 0x00, 0x00,
  0x54, 0x03, 0x00, 0x00, 0x18, 0x03, 0x00, 0x00, 0xdc, 0x02, 0x00, 0x00,
  0x7c, 0x02, 0x00, 0x00, 0x28, 0x02, 0x00, 0x00, 0x84, 0x01, 0x00, 0x00,
  0xe0, 0x00, 0x00, 0x00, 0x60, 0x00, 0x00, 0x00, 0x04, 0x00, 0x00, 0x00,
  0x3e, 0xfc, 0xff, 0xff, 0x00, 0x00, 0x00, 0x01, 0x14, 0x00, 0x00, 0x00,
  0x1c, 0x00, 0x00, 0x00, 0x1c, 0x00, 0x00, 0x00, 0x0b, 0x00, 0x00, 0x00,
  0x34, 0x00, 0x00, 0x00, 0x02, 0x00, 0x00, 0x00, 0xff, 0xff, 0xff, 0xff,
  0x03, 0x00, 0x00, 0x00, 0x28, 0xfc, 0xff, 0xff, 0x1b, 0x00, 0x00, 0x00,
  0x53, 0x74, 0x61, 0x74, 0x65, 0x66, 0x75, 0x6c, 0x50, 0x61, 0x72, 0x74,
  0x69, 0x74, 0x69, 0x6f, 0x6e, 0x65, 0x64, 0x43, 0x61, 0x6c, 0x6c, 0x5f,
  0x31, 0x3a, 0x30, 0x00, 0x02, 0x00, 0x00, 0x00, 0x01, 0x00, 0x00, 0x00,
  0x03, 0x00, 0x00, 0x00, 0x96, 0xfc, 0xff, 0xff, 0x00, 0x00, 0x00, 0x01,
  0x14, 0x00, 0x00, 0x00, 0x1c, 0x00, 0x00, 0x00, 0x1c, 0x00, 0x00, 0x00,
  0x0a, 0x00, 0x00, 0x00, 0x58, 0x00, 0x00, 0x00, 0x02, 0x00, 0x00, 0x00,
  0xff, 0xff, 0xff, 0xff, 0x03, 0x00, 0x00, 0x00, 0x80, 0xfc, 0xff, 0xff,
  0x3e, 0x00, 0x00, 0x00, 0x73, 0x65, 0x71, 0x75, 0x65, 0x6e, 0x74, 0x69,
  0x61, 0x6c, 0x5f, 0x32, 0x5f, 0x31, 0x2f, 0x6f, 0x75, 0x74, 0x70, 0x75,
  0x74, 0x5f, 0x31, 0x2f, 0x4d, 0x61, 0x74, 0x4d, 0x75, 0x6c, 0x3b, 0x73,
  0x65, 0x71, 0x75, 0x65, 0x6e, 0x74, 0x69, 0x61, 0x6c, 0x5f, 0x32, 0x5f,
  0x31, 0x2f, 0x6f, 0x75, 0x74, 0x70, 0x75, 0x74, 0x5f, 0x31, 0x2f, 0x42,
  0x69, 0x61, 0x73, 0x41, 0x64, 0x64, 0x00, 0x00, 0x02, 0x00, 0x00, 0x00,
  0x01, 0x00, 0x00, 0x00, 0x03, 0x00, 0x00, 0x00, 0x12, 0xfd, 0xff, 0xff,
  0x00, 0x00, 0x00, 0x01, 0x14, 0x00, 0x00, 0x00, 0x1c, 0x00, 0x00, 0x00,
  0x1c, 0x00, 0x00, 0x00, 0x09, 0x00, 0x00, 0x00, 0x7c, 0x00, 0x00, 0x00,
  0x02, 0x00, 0x00, 0x00, 0xff, 0xff, 0xff, 0xff, 0x08, 0x00, 0x00, 0x00,
  0xfc, 0xfc, 0xff, 0xff, 0x61, 0x00, 0x00, 0x00, 0x73, 0x65, 0x71, 0x75,
  0x65, 0x6e, 0x74, 0x69, 0x61, 0x6c, 0x5f, 0x32, 0x5f, 0x31, 0x2f, 0x68,
  0x69, 0x64, 0x64, 0x65, 0x6e, 0x5f, 0x32, 0x5f, 0x31, 0x2f, 0x4d, 0x61,
  0x74, 0x4d, 0x75, 0x6c, 0x3b, 0x73, 0x65, 0x71, 0x75, 0x65, 0x6e, 0x74,
  0x69, 0x61, 0x6c, 0x5f, 0x32, 0x5f, 0x31, 0x2f, 0x68, 0x69, 0x64, 0x64,
  0x65, 0x6e, 0x5f, 0x32, 0x5f, 0x31, 0x2f, 0x52, 0x65, 0x6c, 0x75, 0x3b,
  0x73, 0x65, 0x71, 0x75, 0x65, 0x6e, 0x74, 0x69, 0x61, 0x6c, 0x5f, 0x32,
  0x5f, 0x31, 0x2f, 0x68, 0x69, 0x64, 0x64, 0x65, 0x6e, 0x5f, 0x32, 0x5f,
  0x31, 0x2f, 0x42, 0x69, 0x61, 0x73, 0x41, 0x64, 0x64, 0x00, 0x00, 0x00,
  0x02, 0x00, 0x00, 0x00, 0x01, 0x00, 0x00, 0x00, 0x08, 0x00, 0x00, 0x00,
  0xb2, 0xfd, 0xff, 0xff, 0x00, 0x00, 0x00, 0x01, 0x14, 0x00, 0x00, 0x00,
  0x1c, 0x00, 0x00, 0x00, 0x1c, 0x00, 0x00, 0x00, 0x08, 0x00, 0x00, 0x00,
  0x7c, 0x00, 0x00, 0x00, 0x02, 0x00, 0x00, 0x00, 0xff, 0xff, 0xff, 0xff,
  0x10, 0x00, 0x00, 0x00, 0x9c, 0xfd, 0xff, 0xff, 0x61, 0x00, 0x00, 0x00,
  0x73, 0x65, 0x71, 0x75, 0x65, 0x6e, 0x74, 0x69, 0x61, 0x6c, 0x5f, 0x32,
  0x5f, 0x31, 0x2f, 0x68, 0x69, 0x64, 0x64, 0x65, 0x6e, 0x5f, 0x31, 0x5f,
  0x31, 0x2f, 0x4d, 0x61, 0x74, 0x4d, 0x75, 0x6c, 0x3b, 0x73, 0x65, 0x71,
  0x75, 0x65, 0x6e, 0x74, 0x69, 0x61, 0x6c, 0x5f, 0x32, 0x5f, 0x31, 0x2f,
  0x68, 0x69, 0x64, 0x64, 0x65, 0x6e, 0x5f, 0x31, 0x5f, 0x31, 0x2f, 0x52,
  0x65, 0x6c, 0x75, 0x3b, 0x73, 0x65, 0x71, 0x75, 0x65, 0x6e, 0x74, 0x69,
  0x61, 0x6c, 0x5f, 0x32, 0x5f, 0x31, 0x2f, 0x68, 0x69, 0x64, 0x64, 0x65,
  0x6e, 0x5f, 0x31, 0x5f, 0x31, 0x2f, 0x42, 0x69, 0x61, 0x73, 0x41, 0x64,
  0x64, 0x00, 0x00, 0x00, 0x02, 0x00, 0x00, 0x00, 0x01, 0x00, 0x00, 0x00,
  0x10, 0x00, 0x00, 0x00, 0xa6, 0xfe, 0xff, 0xff, 0x00, 0x00, 0x00, 0x01,
  0x10, 0x00, 0x00, 0x00, 0x10, 0x00, 0x00, 0x00, 0x07, 0x00, 0x00, 0x00,
  0x30, 0x00, 0x00, 0x00, 0x2c, 0xfe, 0xff, 0xff, 0x20, 0x00, 0x00, 0x00,
  0x73, 0x65, 0x71, 0x75, 0x65, 0x6e, 0x74, 0x69, 0x61, 0x6c, 0x5f, 0x32,
  0x5f, 0x31, 0x2f, 0x68, 0x69, 0x64, 0x64, 0x65, 0x6e, 0x5f, 0x31, 0x5f,
  0x31, 0x2f, 0x4d, 0x61, 0x74, 0x4d, 0x75, 0x6c, 0x00, 0x00, 0x00, 0x00,
  0x02, 0x00, 0x00, 0x00, 0x10, 0x00, 0x00, 0x00, 0x0d, 0x00, 0x00, 0x00,
  0xf6, 0xfe, 0xff, 0xff, 0x00, 0x00, 0x00, 0x01, 0x10, 0x00, 0x00, 0x00,
  0x10, 0x00, 0x00, 0x00, 0x06, 0x00, 0x00, 0x00, 0x40, 0x00, 0x00, 0x00,
  0x7c, 0xfe, 0xff, 0xff, 0x30, 0x00, 0x00, 0x00, 0x73, 0x65, 0x71, 0x75,
  0x65, 0x6e, 0x74, 0x69, 0x61, 0x6c, 0x5f, 0x32, 0x5f, 0x31, 0x2f, 0x68,
  0x69, 0x64, 0x64, 0x65, 0x6e, 0x5f, 0x31, 0x5f, 0x31, 0x2f, 0x42, 0x69,
  0x61, 0x73, 0x41, 0x64, 0x64, 0x2f, 0x52, 0x65, 0x61, 0x64, 0x56, 0x61,
  0x72, 0x69, 0x61, 0x62, 0x6c, 0x65, 0x4f, 0x70, 0x00, 0x00, 0x00, 0x00,
  0x01, 0x00, 0x00, 0x00, 0x10, 0x00, 0x00, 0x00, 0x52, 0xff, 0xff, 0xff,
  0x00, 0x00, 0x00, 0x01, 0x10, 0x00, 0x00, 0x00, 0x10, 0x00, 0x00, 0x00,
  0x05, 0x00, 0x00, 0x00, 0x1c, 0x00, 0x00, 0x00, 0xd8, 0xfe, 0xff, 0xff,
  0x0f, 0x00, 0x00, 0x00, 0x61, 0x72, 0x69, 0x74, 0x68, 0x2e, 0x63, 0x6f,
  0x6e, 0x73, 0x74, 0x61, 0x6e, 0x74, 0x33, 0x00, 0x01, 0x00, 0x00, 0x00,
  0x08, 0x00, 0x00, 0x00, 0x8a, 0xff, 0xff, 0xff, 0x00, 0x00, 0x00, 0x01,
  0x10, 0x00, 0x00, 0x00, 0x10, 0x00, 0x00, 0x00, 0x04, 0x00, 0x00, 0x00,
  0x1c, 0x00, 0x00, 0x00, 0x10, 0xff, 0xff, 0xff, 0x0f, 0x00, 0x00, 0x00,
  0x61, 0x72, 0x69, 0x74, 0x68, 0x2e, 0x63, 0x6f, 0x6e, 0x73, 0x74, 0x61,
  0x6e, 0x74, 0x32, 0x00, 0x01, 0x00, 0x00, 0x00, 0x03, 0x00, 0x00, 0x00,
  0xc2, 0xff, 0xff, 0xff, 0x00, 0x00, 0x00, 0x01, 0x10, 0x00, 0x00, 0x00,
  0x10, 0x00, 0x00, 0x00, 0x03, 0x00, 0x00, 0x00, 0x1c, 0x00, 0x00, 0x00,
  0x48, 0xff, 0xff, 0xff, 0x0f, 0x00, 0x00, 0x00, 0x61, 0x72, 0x69, 0x74,
  0x68, 0x2e, 0x63, 0x6f, 0x6e, 0x73, 0x74, 0x61, 0x6e, 0x74, 0x31, 0x00,
  0x02, 0x00, 0x00, 0x00, 0x08, 0x00, 0x00, 0x00, 0x10, 0x00, 0x00, 0x00,
  0x00, 0x00, 0x16, 0x00, 0x18, 0x00, 0x14, 0x00, 0x00, 0x00, 0x10, 0x00,
  0x0c, 0x00, 0x08, 0x00, 0x00, 0x00, 0x00, 0x00, 0x00, 0x00, 0x07, 0x00,
  0x16, 0x00, 0x00, 0x00, 0x00, 0x00, 0x00, 0x01, 0x10, 0x00, 0x00, 0x00,
  0x10, 0x00, 0x00, 0x00, 0x02, 0x00, 0x00, 0x00, 0x1c, 0x00, 0x00, 0x00,
  0x9c, 0xff, 0xff, 0xff, 0x0e, 0x00, 0x00, 0x00, 0x61, 0x72, 0x69, 0x74,
  0x68, 0x2e, 0x63, 0x6f, 0x6e, 0x73, 0x74, 0x61, 0x6e, 0x74, 0x00, 0x00,
  0x02, 0x00, 0x00, 0x00, 0x03, 0x00, 0x00, 0x00, 0x08, 0x00, 0x00, 0x00,
  0x00, 0x00, 0x16, 0x00, 0x1c, 0x00, 0x18, 0x00, 0x00, 0x00, 0x14, 0x00,
  0x10, 0x00, 0x0c, 0x00, 0x00, 0x00, 0x00, 0x00, 0x08, 0x00, 0x07, 0x00,
  0x16, 0x00, 0x00, 0x00, 0x00, 0x00, 0x00, 0x01, 0x14, 0x00, 0x00, 0x00,
  0x20, 0x00, 0x00, 0x00, 0x20, 0x00, 0x00, 0x00, 0x01, 0x00, 0x00, 0x00,
  0x40, 0x00, 0x00, 0x00, 0x02, 0x00, 0x00, 0x00, 0xff, 0xff, 0xff, 0xff,
  0x0d, 0x00, 0x00, 0x00, 0x04, 0x00, 0x04, 0x00, 0x04, 0x00, 0x00, 0x00,
  0x20, 0x00, 0x00, 0x00, 0x73, 0x65, 0x72, 0x76, 0x69, 0x6e, 0x67, 0x5f,
  0x64, 0x65, 0x66, 0x61, 0x75, 0x6c, 0x74, 0x5f, 0x6b, 0x65, 0x72, 0x61,
  0x73, 0x5f, 0x74, 0x65, 0x6e, 0x73, 0x6f, 0x72, 0x5f, 0x38, 0x3a, 0x30,
  0x00, 0x00, 0x00, 0x00, 0x02, 0x00, 0x00, 0x00, 0x01, 0x00, 0x00, 0x00,
  0x0d, 0x00, 0x00, 0x00, 0x02, 0x00, 0x00, 0x00, 0x20, 0x00, 0x00, 0x00,
  0x04, 0x00, 0x00, 0x00, 0xf4, 0xff, 0xff, 0xff, 0x19, 0x00, 0x00, 0x00,
  0x00, 0x00, 0x00, 0x19, 0x0c, 0x00, 0x0c, 0x00, 0x0b, 0x00, 0x00, 0x00,
  0x00, 0x00, 0x04, 0x00, 0x0c, 0x00, 0x00, 0x00, 0x09, 0x00, 0x00, 0x00,
  0x00, 0x00, 0x00, 0x09
};
unsigned int wine_mlp_float_tflite_len = 3664;
